// firmware/main/model_data.h
#include <cstdint>

// This is a TFLite model trained to detect:
// Normal (<34C), Warning (34-36C), Critical (>36C or High Humidity)
alignas(16) const unsigned char g_model[] = {
  0x1c, 0x00, 0x00, 0x00, 0x54, 0x46, 0x4c, 0x33, 0x14, 0x00, 0x20, 0x00,
  0x10, 0x00, 0x0c, 0x00, 0x08, 0x00, 0x04, 0x00, 0x10, 0x00, 0x00, 0x00,
  0x0c, 0x00, 0x00, 0x00, 0x04, 0x00, 0x00, 0x00, 0x14, 0x00, 0x00, 0x00,
  0x1c, 0x00, 0x00, 0x00, 0x04, 0x00, 0x00, 0x00, 0x30, 0x06, 0x00, 0x00,
  0xdc, 0x05, 0x00, 0x00, 0x88, 0x05, 0x00, 0x00, 0x34, 0x00, 0x00, 0x00,
  0x2c, 0x00, 0x00, 0x00, 0x24, 0x00, 0x00, 0x00, 0x1c, 0x00, 0x00, 0x00,
  0x04, 0x00, 0x00, 0x00, 0xfe, 0xf9, 0xff, 0xff, 0x04, 0x00, 0x00, 0x00,
  0x0c, 0x00, 0x00, 0x00, 0x48, 0x05, 0x00, 0x00, 0x38, 0x05, 0x00, 0x00,
  0x14, 0x05, 0x00, 0x00, 0xcc, 0x04, 0x00, 0x00, 0x74, 0x00, 0x00, 0x00,
  0x01, 0x00, 0x00, 0x00, 0x00, 0x00, 0x00, 0x00, 0x00, 0x00, 0x00, 0x00,
  0x04, 0x00, 0x00, 0x00, 0x64, 0x04, 0x00, 0x00, 0x18, 0x03, 0x00, 0x00,
  0xec, 0x01, 0x00, 0x00, 0xfc, 0x00, 0x00, 0x00, 0xd4, 0x00, 0x00, 0x00,
  0xcc, 0x00, 0x00, 0x00, 0xc4, 0x00, 0x00, 0x00, 0xbc, 0x00, 0x00, 0x00,
  0xb4, 0x00, 0x00, 0x00, 0xac, 0x00, 0x00, 0x00, 0xa4, 0x00, 0x00, 0x00,
  0x9c, 0x00, 0x00, 0x00, 0x94, 0x00, 0x00, 0x00, 0x8c, 0x00, 0x00, 0x00,
  0x6c, 0x00, 0x00, 0x00, 0x00, 0x00, 0x00, 0x00, 0x00, 0x00, 0x00, 0x00,
  0x0c, 0x00, 0x00, 0x00, 0x0c, 0x00, 0x00, 0x00, 0x00, 0x00, 0x00, 0x00,
  0x78, 0x00, 0x00, 0x00, 0x24, 0x00, 0x00, 0x00, 0x00, 0x00, 0x00, 0x00,
  0x00, 0x00, 0x00, 0x00, 0x60, 0x00, 0x00, 0x00, 0x00, 0x00, 0x00, 0x00,
  0x00, 0x00, 0x00, 0x00, 0x4c, 0x00, 0x00, 0x00, 0x00, 0x00, 0x00, 0x00,
  0x03, 0x00, 0x00, 0x00, 0x36, 0x00, 0x00, 0x00, 0x00, 0x00, 0x00, 0x00,
  0x03, 0x00, 0x00, 0x00, 0x24, 0x00, 0x00, 0x00, 0x58, 0xfe, 0xff, 0xff,
  0x04, 0x00, 0x00, 0x00, 0x10, 0x00, 0x00, 0x00, 0x31, 0x2e, 0x35, 0x2e,
  0x30, 0x00, 0x00, 0x00, 0x00, 0x00, 0x00, 0x00, 0x00, 0x00, 0x00, 0x00,
  0x94, 0xf9, 0xff, 0xff, 0x98, 0xf9, 0xff, 0xff, 0x9c, 0xf9, 0xff, 0xff,
  0xa0, 0xf9, 0xff, 0xff, 0x2e, 0xfa, 0xff, 0xff, 0x04, 0x00, 0x00, 0x00,
  0x80, 0x00, 0x00, 0x00, 0x6e, 0xd0, 0x6d, 0x43, 0x6c, 0x02, 0x52, 0xc2,
  0x2b, 0xe1, 0x0e, 0x42, 0xf5, 0xb7, 0x98, 0xc2, 0x1e, 0xc7, 0x6d, 0x41,
  0x35, 0xc6, 0xc8, 0xc1, 0x39, 0x26, 0xe4, 0x41, 0x2e, 0x5f, 0x0f, 0xc2,
  0x17, 0x35, 0x9b, 0xc1, 0x8a, 0x54, 0x9d, 0xc2, 0x45, 0x4f, 0x50, 0x42,
  0xb1, 0xfb, 0x93, 0x42, 0xe7, 0x09, 0x8e, 0xc0, 0x5a, 0x94, 0x22, 0x41,
  0xd7, 0xdc, 0xa0, 0x41, 0x3e, 0x9c, 0x07, 0xc1, 0x08, 0x00, 0x00, 0x00,
  0xd4, 0x9e, 0x4f, 0xbf, 0x3c, 0x28, 0x0f, 0x3e, 0xde, 0xc2, 0xb4, 0xbd,
  0x14, 0x79, 0x88, 0x3d, 0xd1, 0x48, 0x4c, 0x3e, 0x91, 0xf4, 0x0a, 0xbe,
  0xa2, 0xfa, 0x04, 0xbe, 0xcc, 0xf9, 0xff, 0xff, 0x04, 0x00, 0x00, 0x00,
  0x00, 0x00, 0x00, 0x00, 0x20, 0x00, 0x00, 0x00, 0x21, 0x5e, 0x0a, 0xbe,
  0x12, 0x86, 0x18, 0x3e, 0xfb, 0x81, 0x76, 0x3e, 0xbc, 0x5d, 0x6f, 0x3e,
  0x91, 0x92, 0xd2, 0xbd, 0x7b, 0x91, 0xb4, 0x3e, 0x70, 0x9f, 0x87, 0x3d,
  0x49, 0x80, 0x8d, 0xbd, 0x08, 0x00, 0x00, 0x00, 0xd9, 0x9a, 0x16, 0x43,
  0xba, 0x62, 0xc1, 0xc2, 0x89, 0x2b, 0x99, 0x42, 0x0e, 0x9c, 0x78, 0xc2,
  0xa8, 0x58, 0x13, 0x42, 0x9e, 0x4f, 0xca, 0xc2, 0xec, 0xf9, 0xff, 0xff,
  0x04, 0x00, 0x00, 0x00, 0x40, 0x00, 0x00, 0x00, 0x32, 0x37, 0x12, 0xc2,
  0x55, 0x2d, 0x26, 0x42, 0x65, 0x6f, 0xe1, 0x41, 0x24, 0x8c, 0x63, 0xc2,
  0x36, 0xd9, 0x32, 0xc2, 0xf5, 0x64, 0x70, 0x42, 0x98, 0x65, 0x46, 0xc2,
  0xcc, 0x7f, 0x5f, 0x42, 0x55, 0x11, 0x79, 0x41, 0xe2, 0x39, 0x14, 0xc2,
  0x6e, 0x27, 0x5c, 0xc1, 0xf0, 0x8a, 0x7a, 0x41, 0x89, 0xc6, 0x53, 0xc2,
  0x11, 0x13, 0x68, 0x42, 0x76, 0x51, 0xf7, 0x41, 0xd7, 0x95, 0x78, 0xc2,
  0x08, 0x00, 0x00, 0x00, 0xc8, 0x35, 0x78, 0x3f, 0x40, 0x08, 0x0a, 0xbf,
  0x82, 0x0a, 0x94, 0x3e, 0xf9, 0xe1, 0xe7, 0x3e, 0x45, 0x2d, 0xe8, 0x3e,
  0x3d, 0x18, 0xb7, 0x3e, 0xf9, 0xf5, 0x31, 0x3e, 0xe1, 0xfb, 0x99, 0xbe,
  0x0c, 0xfa, 0xff, 0xff, 0x04, 0x00, 0x00, 0x00, 0x10, 0x00, 0x00, 0x00,
  0x00, 0x00, 0x00, 0x00, 0x00, 0x00, 0x00, 0x00, 0x00, 0x00, 0x00, 0x00,
  0x00, 0x00, 0x00, 0x00, 0x1c, 0xfa, 0xff, 0xff, 0x04, 0x00, 0x00, 0x00,
  0x00, 0x00, 0x00, 0x00, 0x38, 0xfa, 0xff, 0xff, 0x08, 0x00, 0x00, 0x00,
  0x03, 0x00, 0x00, 0x00, 0x08, 0x00, 0x00, 0x00, 0x50, 0xfa, 0xff, 0xff,
  0x04, 0x00, 0x00, 0x00, 0x02, 0x00, 0x00, 0x00, 0x06, 0x00, 0x00, 0x00,
  0x04, 0x00, 0x00, 0x00, 0x02, 0x00, 0x00, 0x00, 0x01, 0x00, 0x00, 0x00,
  0x68, 0xfa, 0xff, 0xff, 0x04, 0x00, 0x00, 0x00, 0x88, 0xfa, 0xff, 0xff,
  0x0c, 0x00, 0x00, 0x00, 0x08, 0x00, 0x0e, 0x00, 0x08, 0x00, 0x04, 0x00,
  0x08, 0x00, 0x00, 0x00, 0x03, 0x00, 0x00, 0x00, 0x13, 0x00, 0x00, 0x00,
  0x00, 0x00, 0x00, 0x00, 0x03, 0x00, 0x00, 0x00
};
const unsigned int g_model_len = 708;